#ifndef SINE_MODEL_H
#define SINE_MODEL_H


unsigned int sine_model_len = 3460;
unsigned char sine_model[] = {
 0x1c, 0x00, 0x00, 0x00, 0x54, 0x46, 0x4c, 0x33, 0x14, 0x00, 0x20, 0x00,
  0x1c, 0x00, 0x18, 0x00, 0x14, 0x00, 0x10, 0x00, 0x0c, 0x00, 0x00, 0x00,
  0x08, 0x00, 0x04, 0x00, 0x14, 0x00, 0x00, 0x00, 0x1c, 0x00, 0x00, 0x00,
  0xa8, 0x00, 0x00, 0x00, 0x00, 0x01, 0x00, 0x00, 0x1c, 0x07, 0x00, 0x00,
  0x2c, 0x07, 0x00, 0x00, 0x30, 0x0d, 0x00, 0x00, 0x03, 0x00, 0x00, 0x00,
  0x01, 0x00, 0x00, 0x00, 0x10, 0x00, 0x00, 0x00, 0x00, 0x00, 0x0a, 0x00,
  0x10, 0x00, 0x0c, 0x00, 0x08, 0x00, 0x04, 0x00, 0x0a, 0x00, 0x00, 0x00,
  0x0c, 0x00, 0x00, 0x00, 0x1c, 0x00, 0x00, 0x00, 0x44, 0x00, 0x00, 0x00,
  0x0f, 0x00, 0x00, 0x00, 0x73, 0x65, 0x72, 0x76, 0x69, 0x6e, 0x67, 0x5f,
  0x64, 0x65, 0x66, 0x61, 0x75, 0x6c, 0x74, 0x00, 0x01, 0x00, 0x00, 0x00,
  0x04, 0x00, 0x00, 0x00, 0x80, 0xff, 0xff, 0xff, 0x09, 0x00, 0x00, 0x00,
  0x04, 0x00, 0x00, 0x00, 0x11, 0x00, 0x00, 0x00, 0x6d, 0x6f, 0x64, 0x75,
  0x6c, 0x65, 0x5f, 0x77, 0x72, 0x61, 0x70, 0x70, 0x65, 0x72, 0x5f, 0x31,
  0x34, 0x00, 0x00, 0x00, 0x01, 0x00, 0x00, 0x00, 0x04, 0x00, 0x00, 0x00,
  0x7e, 0xf9, 0xff, 0xff, 0x04, 0x00, 0x00, 0x00, 0x17, 0x00, 0x00, 0x00,
  0x6d, 0x6f, 0x64, 0x75, 0x6c, 0x65, 0x5f, 0x77, 0x72, 0x61, 0x70, 0x70,
  0x65, 0x72, 0x5f, 0x31, 0x32, 0x5f, 0x69, 0x6e, 0x70, 0x75, 0x74, 0x00,
  0x02, 0x00, 0x00, 0x00, 0x34, 0x00, 0x00, 0x00, 0x04, 0x00, 0x00, 0x00,
  0xdc, 0xff, 0xff, 0xff, 0x0c, 0x00, 0x00, 0x00, 0x04, 0x00, 0x00, 0x00,
  0x13, 0x00, 0x00, 0x00, 0x43, 0x4f, 0x4e, 0x56, 0x45, 0x52, 0x53, 0x49,
  0x4f, 0x4e, 0x5f, 0x4d, 0x45, 0x54, 0x41, 0x44, 0x41, 0x54, 0x41, 0x00,
  0x08, 0x00, 0x0c, 0x00, 0x08, 0x00, 0x04, 0x00, 0x08, 0x00, 0x00, 0x00,
  0x0b, 0x00, 0x00, 0x00, 0x04, 0x00, 0x00, 0x00, 0x13, 0x00, 0x00, 0x00,
  0x6d, 0x69, 0x6e, 0x5f, 0x72, 0x75, 0x6e, 0x74, 0x69, 0x6d, 0x65, 0x5f,
  0x76, 0x65, 0x72, 0x73, 0x69, 0x6f, 0x6e, 0x00, 0x0d, 0x00, 0x00, 0x00,
  0x18, 0x06, 0x00, 0x00, 0x10, 0x06, 0x00, 0x00, 0xfc, 0x05, 0x00, 0x00,
  0xa4, 0x05, 0x00, 0x00, 0x54, 0x05, 0x00, 0x00, 0x04, 0x05, 0x00, 0x00,
  0xf4, 0x00, 0x00, 0x00, 0xa4, 0x00, 0x00, 0x00, 0x9c, 0x00, 0x00, 0x00,
  0x94, 0x00, 0x00, 0x00, 0x8c, 0x00, 0x00, 0x00, 0x6c, 0x00, 0x00, 0x00,
  0x04, 0x00, 0x00, 0x00, 0x36, 0xfa, 0xff, 0xff, 0x04, 0x00, 0x00, 0x00,
  0x58, 0x00, 0x00, 0x00, 0x0c, 0x00, 0x00, 0x00, 0x08, 0x00, 0x0e, 0x00,
  0x08, 0x00, 0x04, 0x00, 0x08, 0x00, 0x00, 0x00, 0x10, 0x00, 0x00, 0x00,
  0x28, 0x00, 0x00, 0x00, 0x00, 0x00, 0x06, 0x00, 0x08, 0x00, 0x04, 0x00,
  0x06, 0x00, 0x00, 0x00, 0x04, 0x00, 0x00, 0x00, 0x01, 0x00, 0x00, 0x00,
  0xea, 0x03, 0x00, 0x00, 0x00, 0x00, 0x0a, 0x00, 0x10, 0x00, 0x0c, 0x00,
  0x08, 0x00, 0x04, 0x00, 0x0a, 0x00, 0x00, 0x00, 0x02, 0x00, 0x00, 0x00,
  0x02, 0x00, 0x00, 0x00, 0x04, 0x00, 0x00, 0x00, 0x06, 0x00, 0x00, 0x00,
  0x32, 0x2e, 0x31, 0x34, 0x2e, 0x30, 0x00, 0x00, 0x9a, 0xfa, 0xff, 0xff,
  0x04, 0x00, 0x00, 0x00, 0x10, 0x00, 0x00, 0x00, 0x31, 0x2e, 0x35, 0x2e,
  0x30, 0x00, 0x00, 0x00, 0x00, 0x00, 0x00, 0x00, 0x00, 0x00, 0x00, 0x00,
  0xc0, 0xf4, 0xff, 0xff, 0xc4, 0xf4, 0xff, 0xff, 0xc8, 0xf4, 0xff, 0xff,
  0xc2, 0xfa, 0xff, 0xff, 0x04, 0x00, 0x00, 0x00, 0x40, 0x00, 0x00, 0x00,
  0x1f, 0x8f, 0xae, 0x3e, 0xa7, 0xe1, 0x81, 0xbe, 0x1b, 0xa4, 0xd0, 0x3e,
  0x9e, 0x31, 0xb9, 0xbe, 0xfd, 0xea, 0x98, 0x3f, 0xa6, 0xd4, 0xd7, 0xbe,
  0xbc, 0xdb, 0x99, 0xbf, 0xd2, 0x29, 0xfc, 0xbe, 0xc0, 0xc4, 0xe6, 0x3c,
  0x21, 0xcf, 0xb5, 0xbd, 0x60, 0xeb, 0x41, 0xbd, 0x58, 0x39, 0xe3, 0x3e,
  0xd8, 0x6a, 0x1d, 0x3b, 0x82, 0xe3, 0x00, 0x40, 0xa8, 0xbd, 0xdf, 0xbe,
  0x8a, 0xc4, 0x40, 0x3f, 0x0e, 0xfb, 0xff, 0xff, 0x04, 0x00, 0x00, 0x00,
  0x00, 0x04, 0x00, 0x00, 0x63, 0x8b, 0x42, 0xbe, 0xc8, 0xe0, 0xe9, 0xbd,
  0xa0, 0x56, 0x85, 0xbc, 0x83, 0x20, 0x0f, 0x3e, 0xf2, 0x8c, 0x5e, 0x3e,
  0x34, 0xad, 0x9e, 0xbe, 0x5c, 0x46, 0xdd, 0xbe, 0xf0, 0x1b, 0xb8, 0x3c,
  0xaf, 0x26, 0xb8, 0x3e, 0x70, 0x8b, 0x39, 0xbd, 0x6e, 0x87, 0x9f, 0x3d,
  0x52, 0xe3, 0xd4, 0xbe, 0x03, 0x3f, 0xcc, 0x3e, 0x81, 0x37, 0x69, 0x3e,
  0x4b, 0x45, 0xaf, 0x3d, 0x1a, 0x48, 0x01, 0x3e, 0x6c, 0xbc, 0xf2, 0x3d,
  0xfd, 0xe4, 0xa5, 0x3e, 0x1c, 0xb9, 0xb3, 0xbd, 0x34, 0x6a, 0xd6, 0xbe,
  0xc0, 0x8d, 0x40, 0x3c, 0x0d, 0x8f, 0x88, 0x3e, 0xe2, 0x99, 0x39, 0x3e,
  0x06, 0x11, 0x4d, 0x3e, 0xc5, 0xda, 0x92, 0x3e, 0x18, 0xdc, 0x07, 0xbe,
  0xf8, 0xef, 0x9e, 0xbe, 0x5a, 0xc4, 0x43, 0x3e, 0x88, 0xd9, 0x09, 0xbe,
  0xad, 0x91, 0xcb, 0x3e, 0x82, 0xf6, 0x28, 0x3e, 0x63, 0xf2, 0x90, 0x3e,
  0xc4, 0x0b, 0xe5, 0xbd, 0x4b, 0x09, 0x42, 0xbe, 0xcf, 0x46, 0xaa, 0x3e,
  0x5c, 0xe0, 0x0a, 0x3e, 0xf0, 0x1f, 0xf1, 0xbc, 0xa6, 0x05, 0x5c, 0x3e,
  0x65, 0x66, 0x5e, 0xbe, 0xb3, 0xb5, 0x44, 0xbe, 0x3d, 0x8b, 0xc2, 0x3e,
  0x3b, 0x64, 0xbe, 0x3e, 0xc5, 0x38, 0xc0, 0x3d, 0x5a, 0x36, 0xc7, 0x3e,
  0x54, 0xf4, 0xde, 0xbd, 0x61, 0xa7, 0x9e, 0x3d, 0x42, 0xa2, 0x67, 0xbd,
  0x2e, 0x8a, 0x48, 0x3e, 0x40, 0x74, 0x2c, 0x3c, 0xb5, 0x05, 0x91, 0x3e,
  0xe0, 0x0e, 0x18, 0xbd, 0x9d, 0xe7, 0xb7, 0x3e, 0x00, 0xe6, 0x43, 0xbb,
  0xfa, 0xc6, 0xdb, 0xbe, 0x1b, 0xdf, 0xb6, 0x3e, 0x78, 0xf5, 0xb1, 0xbe,
  0xa3, 0xe5, 0x43, 0xbe, 0x59, 0x1e, 0xb5, 0x3e, 0x33, 0xac, 0x9f, 0x3e,
  0x95, 0xf0, 0xa6, 0xbe, 0xdf, 0x65, 0xcb, 0x3e, 0x9b, 0x50, 0xd3, 0xbe,
  0xea, 0x9c, 0x91, 0x3d, 0x68, 0x13, 0x2e, 0xbd, 0x76, 0xa3, 0x9e, 0xbe,
  0x10, 0xbf, 0x49, 0xbd, 0x34, 0xf8, 0xe6, 0x3d, 0x8a, 0xe6, 0x1b, 0xbe,
  0x54, 0x64, 0xa3, 0x3d, 0xc0, 0x11, 0x90, 0xbe, 0x78, 0xc4, 0x98, 0xbf,
  0x71, 0x68, 0x80, 0x3e, 0x18, 0x1e, 0x1c, 0xbe, 0xa7, 0x69, 0xb2, 0x3e,
  0xdd, 0x74, 0xa7, 0x3e, 0xb4, 0xa5, 0x32, 0xbf, 0x16, 0x98, 0x94, 0xbe,
  0x4a, 0x9f, 0x58, 0xbf, 0xc8, 0x8f, 0x41, 0x3e, 0xd2, 0xfe, 0x03, 0xbe,
  0xb3, 0xd9, 0x9f, 0x3e, 0x20, 0xf2, 0x70, 0xbd, 0xfa, 0xc0, 0x76, 0x3e,
  0x16, 0xbd, 0x78, 0xbe, 0xfa, 0x5a, 0x62, 0x3e, 0xc1, 0x44, 0x96, 0x3e,
  0xca, 0x64, 0xc6, 0xbe, 0xfc, 0xc5, 0xcb, 0xbe, 0x87, 0x61, 0x87, 0x3e,
  0xae, 0x6c, 0x2b, 0x3e, 0x03, 0x01, 0x9b, 0xbe, 0x18, 0x7e, 0xd0, 0xbe,
  0x55, 0xe6, 0xa8, 0x3e, 0x27, 0x5d, 0x8c, 0x3e, 0x98, 0x00, 0x52, 0x3d,
  0x59, 0xe2, 0x9f, 0xbe, 0x52, 0xa8, 0xbb, 0xbe, 0xf3, 0xe8, 0x79, 0xbe,
  0x6c, 0x6a, 0x39, 0xbe, 0xc6, 0xba, 0xce, 0xbe, 0x53, 0x59, 0xd5, 0x3e,
  0x62, 0xfb, 0xd0, 0xbe, 0x62, 0x25, 0x40, 0x3c, 0x84, 0xab, 0x9e, 0xbe,
  0x6a, 0x33, 0x86, 0xbe, 0x00, 0xfc, 0x06, 0xbb, 0x4d, 0x32, 0x9f, 0x3e,
  0x58, 0x0a, 0x16, 0xbf, 0x5d, 0x42, 0x6a, 0xbe, 0x92, 0xc3, 0x45, 0x3e,
  0xf7, 0x15, 0x89, 0xbf, 0x9c, 0x0a, 0xf8, 0x3d, 0x74, 0x7a, 0xce, 0x3d,
  0x3c, 0x76, 0xcb, 0x3d, 0x96, 0x88, 0xd1, 0xbe, 0xaf, 0xdd, 0xd7, 0x3e,
  0x0f, 0x7c, 0x91, 0xbe, 0x4c, 0x5d, 0x35, 0xbe, 0x17, 0x53, 0xbb, 0x3c,
  0x1e, 0xfe, 0x62, 0x3e, 0x72, 0xa6, 0x80, 0xbe, 0x84, 0x4b, 0xdb, 0xbe,
  0x91, 0x8b, 0xee, 0xbd, 0xb8, 0x16, 0x53, 0x3e, 0xe7, 0xea, 0xbf, 0x3e,
  0xc3, 0x22, 0x0e, 0xbe, 0x55, 0x1a, 0xfe, 0x3e, 0x20, 0xa9, 0x46, 0x3d,
  0x19, 0x4d, 0xd0, 0x3e, 0x1e, 0x8d, 0x3b, 0x3e, 0x06, 0x0f, 0x5e, 0x3e,
  0x00, 0x5d, 0x5d, 0x3b, 0x48, 0xa3, 0x08, 0xbe, 0x91, 0xc0, 0xb2, 0xbe,
  0x7f, 0xd8, 0xd3, 0x3e, 0xfa, 0x56, 0x20, 0x3e, 0x43, 0x62, 0xc4, 0x3e,
  0x08, 0xd3, 0xbe, 0xbe, 0x4c, 0x2f, 0xd8, 0xbe, 0x7e, 0x41, 0x2c, 0x3e,
  0xec, 0x66, 0xa1, 0x3d, 0xa0, 0xd6, 0xc3, 0xbc, 0xd0, 0x1c, 0x40, 0x3d,
  0xab, 0xc5, 0x9d, 0x3e, 0x78, 0x86, 0xfc, 0xbd, 0x3d, 0xc1, 0xcb, 0xbe,
  0x6d, 0xf3, 0x6f, 0xbe, 0x64, 0x1a, 0x3d, 0x3e, 0x32, 0x41, 0x3d, 0xbe,
  0x57, 0xf6, 0xa5, 0xbe, 0x9f, 0x21, 0xb7, 0x3e, 0xcc, 0x06, 0xf1, 0x3d,
  0xd5, 0x1f, 0xc6, 0x3e, 0x6d, 0xf5, 0x87, 0xbe, 0xaf, 0xf2, 0xa3, 0x3b,
  0x02, 0xb9, 0x4f, 0x3e, 0xb0, 0x10, 0x8b, 0xbd, 0xee, 0x6e, 0x55, 0xbe,
  0x0b, 0xf6, 0x35, 0x3d, 0xbf, 0x4a, 0xc7, 0xbe, 0x97, 0x54, 0x8f, 0xbe,
  0x46, 0x78, 0xd8, 0xbe, 0xfe, 0xbd, 0x38, 0x3e, 0xf2, 0x95, 0x8c, 0xbe,
  0x00, 0x18, 0x96, 0xbc, 0xde, 0x15, 0xb0, 0xbe, 0x24, 0xa7, 0xa7, 0xbd,
  0x2c, 0x01, 0xb4, 0x3d, 0xdf, 0xb5, 0xc8, 0x3e, 0xe6, 0x91, 0x8f, 0xbe,
  0xa8, 0x7d, 0xfd, 0xbd, 0x87, 0xe2, 0xaa, 0xbe, 0x6d, 0xaf, 0xbb, 0xbe,
  0x4d, 0x83, 0xbe, 0xbe, 0x1a, 0x9f, 0xc9, 0xbe, 0xfa, 0x50, 0xa9, 0xbe,
  0x12, 0x6a, 0x79, 0x3e, 0x08, 0x42, 0x8a, 0xbd, 0x54, 0xf3, 0x86, 0xbd,
  0x37, 0x00, 0x53, 0xbd, 0x9d, 0xe2, 0xda, 0x3e, 0x2a, 0x3a, 0x59, 0x3e,
  0xf7, 0xd7, 0x82, 0x3e, 0x6b, 0x4c, 0xdd, 0xbe, 0xb2, 0x4b, 0x89, 0xbe,
  0x61, 0x86, 0xbc, 0x3e, 0xb1, 0xac, 0x6d, 0xbd, 0x23, 0xff, 0x3e, 0xbc,
  0xf8, 0x48, 0x22, 0x3d, 0x04, 0x1e, 0x6e, 0x3e, 0xa2, 0xc5, 0x2c, 0x3e,
  0x61, 0x0b, 0xc0, 0x3e, 0xd4, 0x32, 0xf0, 0x3d, 0x89, 0x7e, 0xa0, 0x3e,
  0x94, 0x1d, 0xd4, 0xbe, 0x63, 0x8a, 0x6e, 0xbe, 0xde, 0x4b, 0x21, 0x3e,
  0x35, 0x0d, 0xad, 0x3e, 0xa4, 0x48, 0xdf, 0xbe, 0x7c, 0xb5, 0xb6, 0xbd,
  0x85, 0x22, 0x91, 0xbe, 0xd6, 0x5d, 0x60, 0x3e, 0x72, 0xc8, 0x23, 0xbe,
  0xfb, 0x44, 0x9a, 0x3e, 0x20, 0x91, 0x64, 0x3d, 0x86, 0x7c, 0xef, 0xbd,
  0x6c, 0x20, 0x8a, 0x3e, 0xf4, 0xb9, 0xf1, 0x3d, 0x70, 0x53, 0x7d, 0xbd,
  0xe5, 0x03, 0xdc, 0x3e, 0xd5, 0x28, 0x90, 0xbe, 0xc6, 0xd6, 0xb8, 0x3e,
  0xee, 0x8f, 0xc1, 0xbe, 0x7f, 0xa3, 0xac, 0xbe, 0x3d, 0x7c, 0xca, 0x3e,
  0x78, 0x06, 0xa9, 0xbd, 0x80, 0xe3, 0xc1, 0xbe, 0x32, 0xcf, 0x4b, 0x3e,
  0x4f, 0xb7, 0x0b, 0xbf, 0x6a, 0xd4, 0x17, 0x3f, 0x6c, 0xd8, 0xb4, 0xbd,
  0xbe, 0x4a, 0x4c, 0x3f, 0x1f, 0x36, 0x1b, 0xbd, 0xfe, 0xf5, 0x5c, 0xbe,
  0x66, 0x53, 0x6b, 0x3e, 0xe4, 0x85, 0xce, 0x3d, 0xe0, 0xa4, 0x65, 0x3c,
  0x56, 0x5d, 0x50, 0x3e, 0x5c, 0x8e, 0x97, 0xbe, 0x9e, 0x63, 0x03, 0x3e,
  0x41, 0x16, 0x01, 0x3e, 0xe1, 0x3f, 0xb7, 0xbe, 0xe0, 0xd9, 0x08, 0xbd,
  0x2e, 0xf5, 0x94, 0xbe, 0xb5, 0x49, 0x0e, 0x3e, 0x97, 0x59, 0xa5, 0x3d,
  0xa8, 0x40, 0x26, 0xbe, 0xfa, 0xc3, 0x66, 0x3e, 0x9d, 0xb6, 0xc5, 0xbd,
  0x22, 0xe0, 0x5e, 0xbe, 0x10, 0x6f, 0x91, 0x3c, 0xfc, 0x35, 0xd3, 0x3d,
  0xa0, 0x4c, 0xa0, 0xbe, 0x1d, 0x32, 0xb3, 0xbd, 0x1a, 0x7b, 0x72, 0x3e,
  0x5b, 0xb3, 0x53, 0xbe, 0xce, 0x91, 0x79, 0x3d, 0x80, 0xdf, 0x14, 0xbd,
  0x11, 0x6d, 0x9b, 0x3e, 0x00, 0x72, 0x71, 0x3c, 0x6e, 0x52, 0x72, 0xbe,
  0x47, 0xaa, 0x23, 0xbf, 0x9a, 0x62, 0x4f, 0x3e, 0x8f, 0x71, 0x2a, 0xbf,
  0xc8, 0xf9, 0xf7, 0x3e, 0xc6, 0x10, 0x1d, 0xbe, 0x1a, 0xff, 0xff, 0xff,
  0x04, 0x00, 0x00, 0x00, 0x40, 0x00, 0x00, 0x00, 0x49, 0x05, 0xfe, 0xbe,
  0xc8, 0x8b, 0x88, 0xbe, 0x11, 0x91, 0xfd, 0xbe, 0x05, 0x00, 0xbb, 0x3e,
  0x8d, 0x07, 0x9a, 0xbe, 0xc0, 0xfc, 0x66, 0xbe, 0xb1, 0xb9, 0x23, 0x3e,
  0xa4, 0x49, 0xdf, 0xbd, 0xd7, 0x8b, 0x02, 0xbf, 0x7e, 0xc2, 0x0d, 0xbe,
  0x06, 0x9d, 0x53, 0x3e, 0x4a, 0x95, 0xa0, 0x3e, 0x50, 0x3b, 0xb7, 0xbd,
  0x7f, 0xf2, 0x98, 0x3e, 0x9d, 0xd7, 0x05, 0x3f, 0xa0, 0x46, 0x0b, 0xbf,
  0x66, 0xff, 0xff, 0xff, 0x04, 0x00, 0x00, 0x00, 0x40, 0x00, 0x00, 0x00,
  0x00, 0x00, 0x00, 0x00, 0x00, 0x00, 0x00, 0x00, 0x00, 0x00, 0x00, 0x00,
  0xea, 0x27, 0x18, 0xbe, 0x00, 0x00, 0x00, 0x00, 0x00, 0x00, 0x00, 0x00,
  0x90, 0xe4, 0x8b, 0xbe, 0x00, 0x00, 0x00, 0x00, 0x00, 0x00, 0x00, 0x00,
  0x00, 0x00, 0x00, 0x00, 0x6a, 0xb3, 0x67, 0x3f, 0x86, 0xc9, 0x20, 0xbf,
  0x00, 0x00, 0x00, 0x00, 0x90, 0x53, 0x4b, 0xbf, 0xc9, 0x49, 0xa7, 0x3b,
  0x00, 0x00, 0x00, 0x00, 0xb2, 0xff, 0xff, 0xff, 0x04, 0x00, 0x00, 0x00,
  0x40, 0x00, 0x00, 0x00, 0x3e, 0x8e, 0xa1, 0xbd, 0x00, 0x00, 0x00, 0x00,
  0x87, 0x79, 0x9f, 0xbd, 0x38, 0xc4, 0xaf, 0xbe, 0xd3, 0xbb, 0x03, 0x3f,
  0x00, 0x00, 0x00, 0x00, 0xa4, 0xe6, 0xd8, 0x3e, 0xd9, 0x3c, 0xa4, 0xbd,
  0x00, 0x00, 0x00, 0x00, 0x3e, 0x5a, 0xe0, 0xbd, 0x00, 0x00, 0x00, 0x00,
  0x43, 0x59, 0x26, 0x3d, 0xc9, 0xf3, 0x8a, 0xbb, 0x70, 0x50, 0x4b, 0xbf,
  0xfd, 0xe3, 0xa8, 0xbc, 0xbd, 0x53, 0x35, 0x3c, 0x00, 0x00, 0x06, 0x00,
  0x08, 0x00, 0x04, 0x00, 0x06, 0x00, 0x00, 0x00, 0x04, 0x00, 0x00, 0x00,
  0x04, 0x00, 0x00, 0x00, 0x68, 0xeb, 0x87, 0xbd, 0x20, 0xfa, 0xff, 0xff,
  0x24, 0xfa, 0xff, 0xff, 0x0f, 0x00, 0x00, 0x00, 0x4d, 0x4c, 0x49, 0x52,
  0x20, 0x43, 0x6f, 0x6e, 0x76, 0x65, 0x72, 0x74, 0x65, 0x64, 0x2e, 0x00,
  0x01, 0x00, 0x00, 0x00, 0x14, 0x00, 0x00, 0x00, 0x00, 0x00, 0x0e, 0x00,
  0x18, 0x00, 0x14, 0x00, 0x10, 0x00, 0x0c, 0x00, 0x08, 0x00, 0x04, 0x00,
  0x0e, 0x00, 0x00, 0x00, 0x14, 0x00, 0x00, 0x00, 0x1c, 0x00, 0x00, 0x00,
  0xd8, 0x00, 0x00, 0x00, 0xdc, 0x00, 0x00, 0x00, 0xe0, 0x00, 0x00, 0x00,
  0x04, 0x00, 0x00, 0x00, 0x6d, 0x61, 0x69, 0x6e, 0x00, 0x00, 0x00, 0x00,
  0x03, 0x00, 0x00, 0x00, 0x80, 0x00, 0x00, 0x00, 0x38, 0x00, 0x00, 0x00,
  0x04, 0x00, 0x00, 0x00, 0x9a, 0xff, 0xff, 0xff, 0x10, 0x00, 0x00, 0x00,
  0x00, 0x00, 0x00, 0x08, 0x0c, 0x00, 0x00, 0x00, 0x10, 0x00, 0x00, 0x00,
  0x9c, 0xfa, 0xff, 0xff, 0x01, 0x00, 0x00, 0x00, 0x09, 0x00, 0x00, 0x00,
  0x03, 0x00, 0x00, 0x00, 0x08, 0x00, 0x00, 0x00, 0x06, 0x00, 0x00, 0x00,
  0x01, 0x00, 0x00, 0x00, 0xca, 0xff, 0xff, 0xff, 0x10, 0x00, 0x00, 0x00,
  0x00, 0x00, 0x00, 0x08, 0x10, 0x00, 0x00, 0x00, 0x14, 0x00, 0x00, 0x00,
  0xba, 0xff, 0xff, 0xff, 0x00, 0x00, 0x00, 0x01, 0x01, 0x00, 0x00, 0x00,
  0x08, 0x00, 0x00, 0x00, 0x03, 0x00, 0x00, 0x00, 0x07, 0x00, 0x00, 0x00,
  0x05, 0x00, 0x00, 0x00, 0x02, 0x00, 0x00, 0x00, 0x00, 0x00, 0x0e, 0x00,
  0x16, 0x00, 0x00, 0x00, 0x10, 0x00, 0x0c, 0x00, 0x0b, 0x00, 0x04, 0x00,
  0x0e, 0x00, 0x00, 0x00, 0x18, 0x00, 0x00, 0x00, 0x00, 0x00, 0x00, 0x08,
  0x18, 0x00, 0x00, 0x00, 0x1c, 0x00, 0x00, 0x00, 0x00, 0x00, 0x06, 0x00,
  0x08, 0x00, 0x07, 0x00, 0x06, 0x00, 0x00, 0x00, 0x00, 0x00, 0x00, 0x01,
  0x01, 0x00, 0x00, 0x00, 0x07, 0x00, 0x00, 0x00, 0x03, 0x00, 0x00, 0x00,
  0x00, 0x00, 0x00, 0x00, 0x04, 0x00, 0x00, 0x00, 0x03, 0x00, 0x00, 0x00,
  0x01, 0x00, 0x00, 0x00, 0x09, 0x00, 0x00, 0x00, 0x01, 0x00, 0x00, 0x00,
  0x00, 0x00, 0x00, 0x00, 0x0a, 0x00, 0x00, 0x00, 0x8c, 0x04, 0x00, 0x00,
  0x08, 0x04, 0x00, 0x00, 0x84, 0x03, 0x00, 0x00, 0x18, 0x03, 0x00, 0x00,
  0xb8, 0x02, 0x00, 0x00, 0x58, 0x02, 0x00, 0x00, 0xf8, 0x01, 0x00, 0x00,
  0x2c, 0x01, 0x00, 0x00, 0x60, 0x00, 0x00, 0x00, 0x04, 0x00, 0x00, 0x00,
  0xb2, 0xfb, 0xff, 0xff, 0x00, 0x00, 0x00, 0x01, 0x14, 0x00, 0x00, 0x00,
  0x1c, 0x00, 0x00, 0x00, 0x1c, 0x00, 0x00, 0x00, 0x0a, 0x00, 0x00, 0x00,
  0x34, 0x00, 0x00, 0x00, 0x02, 0x00, 0x00, 0x00, 0xff, 0xff, 0xff, 0xff,
  0x01, 0x00, 0x00, 0x00, 0x9c, 0xfb, 0xff, 0xff, 0x19, 0x00, 0x00, 0x00,
  0x53, 0x74, 0x61, 0x74, 0x65, 0x66, 0x75, 0x6c, 0x50, 0x61, 0x72, 0x74,
  0x69, 0x74, 0x69, 0x6f, 0x6e, 0x65, 0x64, 0x43, 0x61, 0x6c, 0x6c, 0x3a,
  0x30, 0x00, 0x00, 0x00, 0x02, 0x00, 0x00, 0x00, 0x01, 0x00, 0x00, 0x00,
  0x01, 0x00, 0x00, 0x00, 0x0a, 0xfc, 0xff, 0xff, 0x00, 0x00, 0x00, 0x01,
  0x14, 0x00, 0x00, 0x00, 0x1c, 0x00, 0x00, 0x00, 0x1c, 0x00, 0x00, 0x00,
  0x09, 0x00, 0x00, 0x00, 0xa4, 0x00, 0x00, 0x00, 0x02, 0x00, 0x00, 0x00,
  0xff, 0xff, 0xff, 0xff, 0x10, 0x00, 0x00, 0x00, 0xf4, 0xfb, 0xff, 0xff,
  0x8b, 0x00, 0x00, 0x00, 0x73, 0x65, 0x71, 0x75, 0x65, 0x6e, 0x74, 0x69,
  0x61, 0x6c, 0x5f, 0x34, 0x2f, 0x6d, 0x6f, 0x64, 0x75, 0x6c, 0x65, 0x5f,
  0x77, 0x72, 0x61, 0x70, 0x70, 0x65, 0x72, 0x5f, 0x31, 0x33, 0x2f, 0x64,
  0x65, 0x6e, 0x73, 0x65, 0x5f, 0x31, 0x33, 0x2f, 0x4d, 0x61, 0x74, 0x4d,
  0x75, 0x6c, 0x3b, 0x73, 0x65, 0x71, 0x75, 0x65, 0x6e, 0x74, 0x69, 0x61,
  0x6c, 0x5f, 0x34, 0x2f, 0x6d, 0x6f, 0x64, 0x75, 0x6c, 0x65, 0x5f, 0x77,
  0x72, 0x61, 0x70, 0x70, 0x65, 0x72, 0x5f, 0x31, 0x33, 0x2f, 0x64, 0x65,
  0x6e, 0x73, 0x65, 0x5f, 0x31, 0x33, 0x2f, 0x52, 0x65, 0x6c, 0x75, 0x3b,
  0x73, 0x65, 0x71, 0x75, 0x65, 0x6e, 0x74, 0x69, 0x61, 0x6c, 0x5f, 0x34,
  0x2f, 0x6d, 0x6f, 0x64, 0x75, 0x6c, 0x65, 0x5f, 0x77, 0x72, 0x61, 0x70,
  0x70, 0x65, 0x72, 0x5f, 0x31, 0x33, 0x2f, 0x64, 0x65, 0x6e, 0x73, 0x65,
  0x5f, 0x31, 0x33, 0x2f, 0x42, 0x69, 0x61, 0x73, 0x41, 0x64, 0x64, 0x00,
  0x02, 0x00, 0x00, 0x00, 0x01, 0x00, 0x00, 0x00, 0x10, 0x00, 0x00, 0x00,
  0xd2, 0xfc, 0xff, 0xff, 0x00, 0x00, 0x00, 0x01, 0x14, 0x00, 0x00, 0x00,
  0x1c, 0x00, 0x00, 0x00, 0x1c, 0x00, 0x00, 0x00, 0x08, 0x00, 0x00, 0x00,
  0xa4, 0x00, 0x00, 0x00, 0x02, 0x00, 0x00, 0x00, 0xff, 0xff, 0xff, 0xff,
  0x10, 0x00, 0x00, 0x00, 0xbc, 0xfc, 0xff, 0xff, 0x8b, 0x00, 0x00, 0x00,
  0x73, 0x65, 0x71, 0x75, 0x65, 0x6e, 0x74, 0x69, 0x61, 0x6c, 0x5f, 0x34,
  0x2f, 0x6d, 0x6f, 0x64, 0x75, 0x6c, 0x65, 0x5f, 0x77, 0x72, 0x61, 0x70,
  0x70, 0x65, 0x72, 0x5f, 0x31, 0x32, 0x2f, 0x64, 0x65, 0x6e, 0x73, 0x65,
  0x5f, 0x31, 0x32, 0x2f, 0x4d, 0x61, 0x74, 0x4d, 0x75, 0x6c, 0x3b, 0x73,
  0x65, 0x71, 0x75, 0x65, 0x6e, 0x74, 0x69, 0x61, 0x6c, 0x5f, 0x34, 0x2f,
  0x6d, 0x6f, 0x64, 0x75, 0x6c, 0x65, 0x5f, 0x77, 0x72, 0x61, 0x70, 0x70,
  0x65, 0x72, 0x5f, 0x31, 0x32, 0x2f, 0x64, 0x65, 0x6e, 0x73, 0x65, 0x5f,
  0x31, 0x32, 0x2f, 0x52, 0x65, 0x6c, 0x75, 0x3b, 0x73, 0x65, 0x71, 0x75,
  0x65, 0x6e, 0x74, 0x69, 0x61, 0x6c, 0x5f, 0x34, 0x2f, 0x6d, 0x6f, 0x64,
  0x75, 0x6c, 0x65, 0x5f, 0x77, 0x72, 0x61, 0x70, 0x70, 0x65, 0x72, 0x5f,
  0x31, 0x32, 0x2f, 0x64, 0x65, 0x6e, 0x73, 0x65, 0x5f, 0x31, 0x32, 0x2f,
  0x42, 0x69, 0x61, 0x73, 0x41, 0x64, 0x64, 0x00, 0x02, 0x00, 0x00, 0x00,
  0x01, 0x00, 0x00, 0x00, 0x10, 0x00, 0x00, 0x00, 0x1a, 0xfe, 0xff, 0xff,
  0x00, 0x00, 0x00, 0x01, 0x10, 0x00, 0x00, 0x00, 0x10, 0x00, 0x00, 0x00,
  0x07, 0x00, 0x00, 0x00, 0x3c, 0x00, 0x00, 0x00, 0x74, 0xfd, 0xff, 0xff,
  0x2e, 0x00, 0x00, 0x00, 0x73, 0x65, 0x71, 0x75, 0x65, 0x6e, 0x74, 0x69,
  0x61, 0x6c, 0x5f, 0x34, 0x2f, 0x6d, 0x6f, 0x64, 0x75, 0x6c, 0x65, 0x5f,
  0x77, 0x72, 0x61, 0x70, 0x70, 0x65, 0x72, 0x5f, 0x31, 0x34, 0x2f, 0x64,
  0x65, 0x6e, 0x73, 0x65, 0x5f, 0x31, 0x34, 0x2f, 0x4d, 0x61, 0x74, 0x4d,
  0x75, 0x6c, 0x00, 0x00, 0x02, 0x00, 0x00, 0x00, 0x01, 0x00, 0x00, 0x00,
  0x10, 0x00, 0x00, 0x00, 0x76, 0xfe, 0xff, 0xff, 0x00, 0x00, 0x00, 0x01,
  0x10, 0x00, 0x00, 0x00, 0x10, 0x00, 0x00, 0x00, 0x06, 0x00, 0x00, 0x00,
  0x3c, 0x00, 0x00, 0x00, 0xd0, 0xfd, 0xff, 0xff, 0x2e, 0x00, 0x00, 0x00,
  0x73, 0x65, 0x71, 0x75, 0x65, 0x6e, 0x74, 0x69, 0x61, 0x6c, 0x5f, 0x34,
  0x2f, 0x6d, 0x6f, 0x64, 0x75, 0x6c, 0x65, 0x5f, 0x77, 0x72, 0x61, 0x70,
  0x70, 0x65, 0x72, 0x5f, 0x31, 0x33, 0x2f, 0x64, 0x65, 0x6e, 0x73, 0x65,
  0x5f, 0x31, 0x33, 0x2f, 0x4d, 0x61, 0x74, 0x4d, 0x75, 0x6c, 0x00, 0x00,
  0x02, 0x00, 0x00, 0x00, 0x10, 0x00, 0x00, 0x00, 0x10, 0x00, 0x00, 0x00,
  0xd2, 0xfe, 0xff, 0xff, 0x00, 0x00, 0x00, 0x01, 0x10, 0x00, 0x00, 0x00,
  0x10, 0x00, 0x00, 0x00, 0x05, 0x00, 0x00, 0x00, 0x3c, 0x00, 0x00, 0x00,
  0x2c, 0xfe, 0xff, 0xff, 0x2e, 0x00, 0x00, 0x00, 0x73, 0x65, 0x71, 0x75,
  0x65, 0x6e, 0x74, 0x69, 0x61, 0x6c, 0x5f, 0x34, 0x2f, 0x6d, 0x6f, 0x64,
  0x75, 0x6c, 0x65, 0x5f, 0x77, 0x72, 0x61, 0x70, 0x70, 0x65, 0x72, 0x5f,
  0x31, 0x32, 0x2f, 0x64, 0x65, 0x6e, 0x73, 0x65, 0x5f, 0x31, 0x32, 0x2f,
  0x4d, 0x61, 0x74, 0x4d, 0x75, 0x6c, 0x00, 0x00, 0x02, 0x00, 0x00, 0x00,
  0x10, 0x00, 0x00, 0x00, 0x01, 0x00, 0x00, 0x00, 0x2e, 0xff, 0xff, 0xff,
  0x00, 0x00, 0x00, 0x01, 0x10, 0x00, 0x00, 0x00, 0x10, 0x00, 0x00, 0x00,
  0x04, 0x00, 0x00, 0x00, 0x4c, 0x00, 0x00, 0x00, 0x88, 0xfe, 0xff, 0xff,
  0x3e, 0x00, 0x00, 0x00, 0x73, 0x65, 0x71, 0x75, 0x65, 0x6e, 0x74, 0x69,
  0x61, 0x6c, 0x5f, 0x34, 0x2f, 0x6d, 0x6f, 0x64, 0x75, 0x6c, 0x65, 0x5f,
  0x77, 0x72, 0x61, 0x70, 0x70, 0x65, 0x72, 0x5f, 0x31, 0x32, 0x2f, 0x64,
  0x65, 0x6e, 0x73, 0x65, 0x5f, 0x31, 0x32, 0x2f, 0x42, 0x69, 0x61, 0x73,
  0x41, 0x64, 0x64, 0x2f, 0x52, 0x65, 0x61, 0x64, 0x56, 0x61, 0x72, 0x69,
  0x61, 0x62, 0x6c, 0x65, 0x4f, 0x70, 0x00, 0x00, 0x01, 0x00, 0x00, 0x00,
  0x10, 0x00, 0x00, 0x00, 0x96, 0xff, 0xff, 0xff, 0x00, 0x00, 0x00, 0x01,
  0x10, 0x00, 0x00, 0x00, 0x10, 0x00, 0x00, 0x00, 0x03, 0x00, 0x00, 0x00,
  0x4c, 0x00, 0x00, 0x00, 0xf0, 0xfe, 0xff, 0xff, 0x3e, 0x00, 0x00, 0x00,
  0x73, 0x65, 0x71, 0x75, 0x65, 0x6e, 0x74, 0x69, 0x61, 0x6c, 0x5f, 0x34,
  0x2f, 0x6d, 0x6f, 0x64, 0x75, 0x6c, 0x65, 0x5f, 0x77, 0x72, 0x61, 0x70,
  0x70, 0x65, 0x72, 0x5f, 0x31, 0x33, 0x2f, 0x64, 0x65, 0x6e, 0x73, 0x65,
  0x5f, 0x31, 0x33, 0x2f, 0x42, 0x69, 0x61, 0x73, 0x41, 0x64, 0x64, 0x2f,
  0x52, 0x65, 0x61, 0x64, 0x56, 0x61, 0x72, 0x69, 0x61, 0x62, 0x6c, 0x65,
  0x4f, 0x70, 0x00, 0x00, 0x01, 0x00, 0x00, 0x00, 0x10, 0x00, 0x00, 0x00,
  0x00, 0x00, 0x16, 0x00, 0x18, 0x00, 0x14, 0x00, 0x00, 0x00, 0x10, 0x00,
  0x0c, 0x00, 0x08, 0x00, 0x00, 0x00, 0x00, 0x00, 0x00, 0x00, 0x07, 0x00,
  0x16, 0x00, 0x00, 0x00, 0x00, 0x00, 0x00, 0x01, 0x10, 0x00, 0x00, 0x00,
  0x10, 0x00, 0x00, 0x00, 0x02, 0x00, 0x00, 0x00, 0x4c, 0x00, 0x00, 0x00,
  0x70, 0xff, 0xff, 0xff, 0x3e, 0x00, 0x00, 0x00, 0x73, 0x65, 0x71, 0x75,
  0x65, 0x6e, 0x74, 0x69, 0x61, 0x6c, 0x5f, 0x34, 0x2f, 0x6d, 0x6f, 0x64,
  0x75, 0x6c, 0x65, 0x5f, 0x77, 0x72, 0x61, 0x70, 0x70, 0x65, 0x72, 0x5f,
  0x31, 0x34, 0x2f, 0x64, 0x65, 0x6e, 0x73, 0x65, 0x5f, 0x31, 0x34, 0x2f,
  0x42, 0x69, 0x61, 0x73, 0x41, 0x64, 0x64, 0x2f, 0x52, 0x65, 0x61, 0x64,
  0x56, 0x61, 0x72, 0x69, 0x61, 0x62, 0x6c, 0x65, 0x4f, 0x70, 0x00, 0x00,
  0x01, 0x00, 0x00, 0x00, 0x01, 0x00, 0x00, 0x00, 0x00, 0x00, 0x16, 0x00,
  0x1c, 0x00, 0x18, 0x00, 0x00, 0x00, 0x14, 0x00, 0x10, 0x00, 0x0c, 0x00,
  0x00, 0x00, 0x00, 0x00, 0x08, 0x00, 0x07, 0x00, 0x16, 0x00, 0x00, 0x00,
  0x00, 0x00, 0x00, 0x01, 0x14, 0x00, 0x00, 0x00, 0x20, 0x00, 0x00, 0x00,
  0x20, 0x00, 0x00, 0x00, 0x01, 0x00, 0x00, 0x00, 0x48, 0x00, 0x00, 0x00,
  0x02, 0x00, 0x00, 0x00, 0xff, 0xff, 0xff, 0xff, 0x01, 0x00, 0x00, 0x00,
  0x04, 0x00, 0x04, 0x00, 0x04, 0x00, 0x00, 0x00, 0x29, 0x00, 0x00, 0x00,
  0x73, 0x65, 0x72, 0x76, 0x69, 0x6e, 0x67, 0x5f, 0x64, 0x65, 0x66, 0x61,
  0x75, 0x6c, 0x74, 0x5f, 0x6d, 0x6f, 0x64, 0x75, 0x6c, 0x65, 0x5f, 0x77,
  0x72, 0x61, 0x70, 0x70, 0x65, 0x72, 0x5f, 0x31, 0x32, 0x5f, 0x69, 0x6e,
  0x70, 0x75, 0x74, 0x3a, 0x30, 0x00, 0x00, 0x00, 0x02, 0x00, 0x00, 0x00,
  0x01, 0x00, 0x00, 0x00, 0x01, 0x00, 0x00, 0x00, 0x01, 0x00, 0x00, 0x00,
  0x10, 0x00, 0x00, 0x00, 0x0c, 0x00, 0x0c, 0x00, 0x0b, 0x00, 0x00, 0x00,
  0x00, 0x00, 0x04, 0x00, 0x0c, 0x00, 0x00, 0x00, 0x09, 0x00, 0x00, 0x00,
  0x00, 0x00, 0x00, 0x09
};

#endif //SINE_MODEL_H